<unk>	0
<s>	0
</s>	0
่า	-0
ี่	-1
อง	-2
้า	-3
รา	-4
ํา	-5
ับ	-6
ที่	-7
▁เ	-8
มา	-9
ม่	-10
ัน	-11
อย	-12
ือ	-13
ด้	-14
ไม่	-15
าร	-16
▁แ	-17
คร	-18
ื่	-19
ว่า	-20
อบ	-21
าก	-22
ได้	-23
าม	-24
จะ	-25
มี	-26
ัง	-27
็น	-28
้อ	-29
เล	-30
เป	-31
การ	-32
ให	-33
อน	-34
หน	-35
ระ	-36
ก็	-37
ต่	-38
ีย	-39
เรา	-40
ไป	-41
้น	-42
ี้	-43
้ว	-44
่ง	-45
คว	-46
าย	-47
ทํา	-48
แล	-49
ู้	-50
ิด	-51
ให้	-52
เป็น	-53
อก	-54
ค่	-55
นี้	-56
ิน	-57
ใน	-58
เร	-59
้อง	-60
าน	-61
คน	-62
ตั	-63
ครับ	-64
สอบ	-65
เข	-66
่ว	-67
ความ	-68
ัก	-69
หม	-70
ของ	-71
เพ	-72
ข้อ	-73
้ง	-74
..	-75
หร	-76
หล	-77
กับ	-78
ค่ะ	-79
ดี	-80
เลย	-81
แล้ว	-82
าง	-83
เก	-84
ละ	-85
กัน	-86
มาก	-87
คะ	-88
ู่	-89
ื่อ	-90
กล	-91
▁ส	-92
ประ	-93
เด	-94
▁1	-95
่าง	-96
อยาก	-97
ตัว	-98
่น	-99
จาก	-100
บบ	-101
▁แต่	-102
ผม	-103
นะ	-104
ต้อง	-105
อะ	-106
รู้	-107
▁ค	-108
้าง	-109
ื่อง	-110
ใจ	-111
ใช	-112
ริ	-113
อยู่	-114
ไร	-115
ึง	-116
วัน	-117
▁พ	-118
▁2	-119
มัน	-120
ยัง	-121
หรือ	-122
วย	-123
อา	-124
ือน	-125
ตร	-126
งาน	-127
ทุ	-128
เค	-129
ั้น	-130
่าน	-131
หา	-132
เม	-133
้าน	-134
เท	-135
คุ	-136
แต่	-137
▁เรา	-138
วิ	-139
่ม	-140
ลา	-141
ติ	-142
▁บ	-143
00	-144
มั	-145
แบบ	-146
ัด	-147
▁เพ	-148
ด้วย	-149
เว	-150
นว	-151
ตอน	-152
▁ข	-153
ื้อ	-154
เข้า	-155
ูก	-156
ร์	-157
อะไร	-158
ราะ	-159
ผู้	-160
รับ	-161
ใช้	-162
ี่ย	-163
ไม่ได้	-164
รถ	-165
ุด	-166
เส	-167
ทุก	-168
▁(	-169
ข้อสอบ	-170
กร	-171
ั้ง	-172
ลง	-173
▁และ	-174
ดู	-175
ึ่ง	-176
อย่าง	-177
ึก	-178
ไหม	-179
และ	-180
--	-181
▁อ	-182
่อน	-183
ึ้น	-184
ภา	-185
เห	-186
▁น	-187
ียน	-188
ัญ	-189
เรื่อง	-190
ตาม	-191
หน้า	-192
▁แล	-193
ทาง	-194
ถึง	-195
โด	-196
่อย	-197
ช่ว	-198
▁จ	-199
เจ	-200
ขึ้น	-201
ื่อน	-202
▁แล้ว	-203
ถ้า	-204
คือ	-205
้ํา	-206
เขา	-207
▁ไม่	-208
บอก	-209
ัว	-210
ีก	-211
in	-212
สา	-213
คํา	-214
▁มี	-215
อม	-216
▁ร	-217
ถาม	-218
an	-219
นั้น	-220
ก้	-221
ทย	-222
ไง	-223
กระ	-224
่าย	-225
ออก	-226
เง	-227
คิด	-228
่วน	-229
▁ป	-230
กว่า	-231
อด	-232
55	-233
าท	-234
เน	-235
ไหน	-236
อร์	-237
ทร	-238
บ้าง	-239
ใคร	-240
▁3	-241
เวลา	-242
ัย	-243
on	-244
ฟน	-245
▁คือ	-246
เงิน	-247
▁ซ	-248
นา	-249
▁หรือ	-250
คุณ	-251
เอง	-252
นวข้อสอบ	-253
er	-254
นํา	-255
ิ่ม	-256
▁ที่	-257
หมือน	-258
พอ	-259
ต่อ	-260
▁อยาก	-261
เมื่อ	-262
เรียน	-263
▁เล	-264
co	-265
ย์	-266
เช	-267
ไข	-268
ชอบ	-269
สิ	-270
ไว	-271
ริง	-272
ชี	-273
ก่อน	-274
ื่น	-275
อีก	-276
บ้าน	-277
เพื่อน	-278
re	-279
โดย	-280
ตั้ง	-281
ผล	-282
เคย	-283
ติด	-284
เย	-285
▁h	-286
ทั้ง	-287
ควร	-288
ข้อความ	-289
หน่อย	-290
▁เพราะ	-291
ที	-292
▁จะ	-293
จริง	-294
▁4	-295
มารถ	-296
▁เป	-297
ั่ง	-298
คา	-299
ียง	-300
ยังไง	-301
เหมือน	-302
ปี	-303
tt	-304
ษา	-305
ก้ไข	-306
ส่ง	-307
น้ํา	-308
ี่ยว	-309
้ย	-310
ตอบ	-311
▁ทํา	-312
▁ผม	-313
กลับ	-314
▁t	-315
แร	-316
▁-	-317
ถูก	-318
าะ	-319
สํา	-320
▁ก็	-321
เห็น	-322
▁การ	-323
หลัง	-324
ชา	-325
แน	-326
เปล	-327
....	-328
ิต	-329
เอ	-330
▁แนวข้อสอบ	-331
สน	-332
ิก	-333
ไทย	-334
รุ	-335
ซื้อ	-336
รร	-337
ค้า	-338
//	-339
▁S	-340
ช่วย	-341
▁5	-342
สุด	-343
ือก	-344
วน	-345
นะคะ	-346
สามารถ	-347
นะนํา	-348
ไม	-349
้อย	-350
ส่วน	-351
มั้ย	-352
ลูก	-353
ไว้	-354
▁ใน	-355
ไม่มี	-356
ลัง	-357
▁ถ้า	-358
ัส	-359
แฟน	-360
▁ซึ่ง	-361
จํา	-362
้าย	-363
เพราะ	-364
ต่าง	-365
▁โ	-366
เค้า	-367
▁บาท	-368
เบ	-369
▁ก	-370
รู้ส	-371
ar	-372
ตอนนี้	-373
ใหม่	-374
com	-375
▁พอ	-376
ผ่าน	-377
://	-378
ttp	-379
----	-380
หนัง	-381
or	-382
ปล	-383
เต	-384
เกี่ยว	-385
วง	-386
▁s	-387
ราคา	-388
รู้สึก	-389
ียว	-390
en	-391
สมั	-392
แค่	-393
ณ์	-394
ราย	-395
▁เป็น	-396
คล	-397
▁แก้ไข	-398
ขอ	-399
▁C	-400
ภาพ	-401
ti	-402
เคร	-403
▁http	-404
เอา	-405
▁วัน	-406
ข้อความเมื่อ	-407
▁ช	-408
ใหญ	-409
อบคุณ	-410
ิม	-411
ประมา	-412
ใหญ่	-413
ค่า	-414
ครั้ง	-415
หาร	-416
แม่	-417
รัก	-418
รี	-419
อื่น	-420
็ก	-421
คุย	-422
al	-423
เปิด	-424
่อ	-425
...	-426
ช่วง	-427
เดือน	-428
เเ	-429
ใส	-430
หัว	-431
**	-432
ตุ	-433
▁ขอ	-434
ประมาณ	-435
ขา	-436
สมัคร	-437
หลาย	-438
ทํางาน	-439
เท่า	-440
เลือก	-441
แนะนํา	-442
▁https	-443
ราบ	-444
ียด	-445
as	-446
ww	-447
ี่ยน	-448
ทําให้	-449
เกี่ยวกับ	-450
เฉ	-451
▁6	-452
เดียว	-453
แบบนี้	-454
ัพ	-455
ูด	-456
▁T	-457
กํา	-458
เดิน	-459
▁มัน	-460
▁M	-461
นัก	-462
าส	-463
ท่าน	-464
▁ห	-465
เล่น	-466
▁โดย	-467
มาย	-468
ราช	-469
ร้อ	-470
ปก	-471
ค์	-472
จัด	-473
ตล	-474
คาร	-475
ิจ	-476
่ะ	-477
หมด	-478
กระท	-479
ว่าจะ	-480
วม	-481
้ม	-482
▁ม	-483
▁ระ	-484
ืน	-485
▁P	-486
่อง	-487
ทราบ	-488
พี่	-489
จน	-490
ิง	-491
เราก็	-492
่าว	-493
เปลี่ยน	-494
ูป	-495
หว	-496
ียม	-497
คนที่	-498
ic	-499
น์	-500
20	-501
es	-502
ือง	-503
บุ	-504
บริ	-505
เสีย	-506
ุ่ม	-507
ไฟ	-508
โร	-509
ในการ	-510
▁A	-511
ตรง	-512
อ่าน	-513
เกิด	-514
▁ขอบคุณ	-515
ตา	-516
แนน	-517
ใช่	-518
เพิ่ม	-519
เลยค่ะ	-520
เหล	-521
ใส่	-522
วก	-523
คะแนน	-524
000	-525
ข้า	-526
หนังส	-527
▁ล	-528
พูด	-529
สิน	-530
▁7	-531
ิ่ง	-532
เจอ	-533
ou	-534
หนังสือ	-535
สู	-536
เซ	-537
▁1.	-538
ตลอด	-539
▁B	-540
ผิด	-541
แรก	-542
am	-543
op	-544
ตัวเอง	-545
เริ่ม	-546
หรับ	-547
นึง	-548
สม	-549
ุก	-550
▁เม	-551
ข้าง	-552
มากๆ	-553
▁มา	-554
จะมี	-555
กิจ	-556
ดับ	-557
ูล	-558
ทุน	-559
ธี	-560
ปร	-561
เยอะ	-562
▁เลย	-563
ราชการ	-564
เครื่อง	-565
is	-566
ชาย	-567
ธนา	-568
บอกว่า	-569
ยา	-570
ธนาคาร	-571
น่า	-572
ธิ	-573
แท	-574
กิน	-575
ถือ	-576
บัญ	-577
he	-578
te	-579
ต์	-580
ปัญ	-581
ียบ	-582
▁ตาม	-583
หนึ่ง	-584
ร้าน	-585
จริงๆ	-586
สอบถาม	-587
ยว	-588
▁:	-589
▁G	-590
ั่ว	-591
▁2.	-592
ปกติ	-593
▁ส่วน	-594
สี	-595
▁เร	-596
ต้น	-597
กก	-598
หลัก	-599
อาหาร	-600
กําลัง	-601
รู้ว่า	-602
▁"	-603
มือ	-604
▁เช	-605
ห้อง	-606
สง	-607
▁ด	-608
การณ์	-609
เนื้อ	-610
▁#	-611
ั่น	-612
ุ้น	-613
▁10	-614
เพื่อ	-615
ที่เรา	-616
แบ	-617
แพ	-618
วิต	-619
▁ของ	-620
ตรียม	-621
เมือง	-622
ตก	-623
วิธี	-624
▁ต้อง	-625
ขาย	-626
บิน	-627
สบ	-628
▁n	-629
เทศ	-630
▁เด	-631
เพลง	-632
คําตอบ	-633
ไหมครับ	-634
??	-635
าศ	-636
ุน	-637
กรม	-638
เร็	-639
ร้อม	-640
▁ได้	-641
ac	-642
▁f	-643
▁ย	-644
เอก	-645
พาะ	-646
หาก	-647
il	-648
สด	-649
ทะ	-650
▁m	-651
un	-652
่วง	-653
ก็ไม่	-654
เฉพาะ	-655
el	-656
oo	-657
บั	-658
▁9	-659
มูล	-660
ปัญหา	-661
ไล	-662
นาน	-663
หาย	-664
▁เน	-665
ครอบ	-666
▁จาก	-667
ad	-668
et	-669
คง	-670
ing	-671
ตัด	-672
▁ใคร	-673
ความรู้	-674
บาง	-675
,000	-676
▁ตอน	-677
นิ	-678
สัย	-679
าล	-680
▁c	-681
อาจ	-682
▁3.	-683
น้อง	-684
▁ราคา	-685
ุง	-686
พ่อ	-687
▁ไป	-688
ภาษา	-689
เลิก	-690
ประเทศ	-691
-1	-692
จบ	-693
สั	-694
รูป	-695
เหตุ	-696
กระทู้	-697
ฟัง	-698
โทร	-699
โล	-700
▁L	-701
▁“	-702
ลาด	-703
ชีวิต	-704
ยะ	-705
แจ	-706
โดน	-707
▁คน	-708
เจ้า	-709
บัญชี	-710
ญา	-711
ิล	-712
▁R	-713
ชื่อ	-714
ว่าเรา	-715
เติ	-716
ละเอ	-717
ดา	-718
ส์	-719
▁8	-720
ึกษา	-721
เล้ว	-722
ละเอียด	-723
พล	-724
▁E	-725
and	-726
นวน	-727
▁ให้	-728
ที่จะ	-729
หญ	-730
ไอ	-731
▁I	-732
นี่	-733
ยาย	-734
จ่าย	-735
ร้าง	-736
เย็น	-737
เตรียม	-738
▁ตอนนี้	-739
--------	-740
0%	-741
ัฐ	-742
กลัว	-743
จะเป็น	-744
พา	-745
at	-746
ay	-747
it	-748
▁p	-749
พระ	-750
พัน	-751
สอง	-752
สาย	-753
5555	-754
ค่อย	-755
▁เพื่อ	-756
ro	-757
พัก	-758
สัง	-759
าก็	-760
▁20	-761
▁แบบ	-762
กลุ่ม	-763
การบิน	-764
วด	-765
▁F	-766
▁จน	-767
ายุ	-768
ชาติ	-769
ไหมคะ	-770
▁พอดี	-771
▁เช่น	-772
นะครับ	-773
▁D	-774
ลอง	-775
เหน	-776
้อน	-777
▁ควร	-778
ข้อมูล	-779
-3	-780
อล	-781
คืน	-782
ทุกคน	-783
เข้าใจ	-784
สถ	-785
ุม	-786
แก	-787
ใด	-788
สัก	-789
อัน	-790
เติม	-791
▁กับ	-792
ทิ	-793
สะ	-794
โย	-795
หุ้น	-796
▁ตัว	-797
!!	-798
คม	-799
ท์	-800
หญิง	-801
อยู่ใน	-802
ถูกต้อง	-803
หลังจาก	-804
เศ	-805
แม	-806
เที่	-807
จี	-808
ิว	-809
▁w	-810
www	-811
า	-812
▁	-813
น	-814
อ	-815
่	-816
เ	-817
ร	-818
้	-819
ก	-820
ม	-821
ง	-822
ั	-823
ย	-824
ว	-825
ี	-826
ค	-827
บ	-828
ล	-829
ด	-830
ะ	-831
ท	-832
ไ	-833
ห	-834
ต	-835
ส	-836
แ	-837
ิ	-838
ป	-839
จ	-840
ื	-841
ข	-842
ใ	-843
พ	-844
็	-845
ู	-846
ช	-847
ุ	-848
ํ	-849
.	-850
e	-851
ถ	-852
์	-853
a	-854
ผ	-855
o	-856
t	-857
ึ	-858
โ	-859
i	-860
0	-861
n	-862
ๆ	-863
1	-864
s	-865
r	-866
2	-867
-	-868
ซ	-869
5	-870
ณ	-871
c	-872
l	-873
ฟ	-874
p	-875
/	-876
ญ	-877
3	-878
m	-879
h	-880
ศ	-881
d	-882
u	-883
ธ	-884
6	-885
4	-886
ภ	-887
)	-888
(	-889
ษ	-890
9	-891
w	-892
8	-893
g	-894
,	-895
:	-896
S	-897
7	-898
y	-899
?	-900
k	-901
b	-902
f	-903
A	-904
T	-905
B	-906
C	-907
M	-908
ฉ	-909
P	-910
E	-911
%	-912
v	-913
"	-914
*	-915
I	-916
๊	-917
R	-918
–	-919
O	-920
ฝ	-921
D	-922
ฐ	-923
L	-924
G	-925
;	-926
F	-927
!	-928
N	-929
x	-930
+	-931
_	-932
#	-933
ฮ	-934
z	-935
'	-936
K	-937
=	-938
H	-939
W	-940
&	-941
ฤ	-942
”	-943
“	-944
♥	-945
[	-946
]	-947
๋	-948
U	-949
V	-950
ฯ	-951
ฏ	-952
J	-953
Y	-954
「	-955
」	-956
X	-957
j	-958
ฎ	-959
@	-960
ฒ	-961
😭	-962
🙏	-963
ฆ	-964
$	-965
{	-966
}	-967
️	-968
Z	-969
^	-970
ฑ	-971
q	-972
’	-973
Q	-974
๒	-975
|	-976
ฬ	-977
🏻	-978
๖	-979
😂	-980
🏼	-981
๑	-982
❤	-983
😅	-984
~	-985
๔	-986
▶	-987
☺	-988
🌻	-989
😍	-990
🥺	-991
‘	-992
😁	-993
>	-994
๓	-995
๕	-996
